05
0C
0C
14
17
1A
0D
FA
F9
25
1E
12
04
08
00
04
00
06
05
13
14
1D
12
F8
06
22
1F
11
06
07
09
00
07
04
06
16
15
19
09
F0
FE
1F
1E
16
12
0D
FB
FF
01
FB
FD
02
0F
13
17
1F
1D
1C
0E
08
FC
FE
FD
FC
0B
0F
13
1D
1C
1B
0F
05
10
1D
1A
1C
09
05
FE
FE
FE
0B
11
14
20
30
0B
05
08
2A
23
17
05
07
04
01
0D
02
0C
14
15
28
11
FF
08
2D
1E
1C
11
05
FE
03
03
0A
08
10
1F
22
15
02
03
2B
29
18
07
FD
FC
02
F1
F5
F2
EB
E9
E5
02
17
02
E8
E8
EC
F6
FC
00
FD
F7
F9
FD
EE
F1
DE
F6
19
03
DF
E1
E5
F9
07
02
03
FF
F5
F8
F1
EE
EA
F8
16
FF
E0
E3
EB
F7
F8
FD
02
FD
FF
F7
EE
EA
E1
F6
15
04
DD
E3
F4
FC
01
02
05
06
02
FB
06
03
06
03
FF
FF
02
02
F9
FC
02
06
04
FC
F7
02
FB
FD
03
07
00
FB
01
02
FC
FD
FB
FC
00
FB
FB
FE
FB
FD
02
F9
FF
FE
03
F5
00
07
01
FE
03
FF
03
03
00
04
FC
FF
02
FE
FE
F7
FD
03
FD
05
F9
02
00
FE
FB
FE
02
FD
FC
FB
FF
01
F9
F9
02
FC
03
03
06
00
FE
0A
FD
03
F2
FA
01
03
FA
FC
03
FC
FF
00
01
FF
09
02
00
FD
FC
FF
01
FE
F7
FC
04
FF
05
02
FF
06
07
FD
03
00
FA
FC
07
FB
02
FC
FB
08
02
03
07
0A
0A
08
10
07
E5
07
0C
07
06
03
06
03
05
FB
FB
03
FA
FF
17
0F
05
0A
15
01
00
01
03
03
00
FA
01
06
07
02
01
01
17
0D
02
07
0A
03
FE
07
FC
03
00
05
04
11
1C
FF
FE
FE
14
0D
01
04
04
03
03
04
0A
08
08
0F
1A
00
EF
EE
19
0E
0F
08
00
04
01
FF
01
FD
05
06
05
0E
20
18
07
07
01
00
02
00
01
FA
03
00
05
0B
13
0B
12
0B
03
0A
03
05
FF
04
F8
06
03
09
10
14
1C
07
DF
09
12
18
07
03
02
FC
01
01
FE
FF
05
03
FD
00
FB
FD
FF
FF
08
FF
F7
02
06
08
01
FF
03
03
F9
FD
FF
00
03
00
FE
06
08
FB
FC
02
06
04
00
00
06
02
FE
FF
FE
02
05
FC
02
00
00
F8
FC
06
FE
FD
03
F9
FC
FA
F9
01
02
06
F4
FC
0C
