14
30
30
50
5C
68
34
E8
E4
7F
78
48
10
20
00
10
00
18
14
4C
50
74
48
E0
18
7F
7C
44
18
1C
24
00
1C
10
18
58
54
64
24
C0
F8
7C
78
58
48
34
EC
FC
04
EC
F4
08
3C
4C
5C
7C
74
70
38
20
F0
F8
F4
F0
2C
3C
4C
74
70
6C
3C
14
40
74
68
70
24
14
F8
F8
F8
2C
44
50
7F
7F
2C
14
20
7F
7F
5C
14
1C
10
04
34
08
30
50
54
7F
44
FC
20
7F
78
70
44
14
F8
0C
0C
28
20
40
7C
7F
54
08
0C
7F
7F
60
1C
F4
F0
08
C4
D4
C8
AC
A4
94
08
5C
08
A0
A0
B0
D8
F0
00
F4
DC
E4
F4
B8
C4
80
D8
64
0C
80
84
94
E4
1C
08
0C
FC
D4
E0
C4
B8
A8
E0
58
FC
80
8C
AC
DC
E0
F4
08
F4
FC
DC
B8
A8
84
D8
54
10
80
8C
D0
F0
04
08
14
18
08
EC
18
0C
18
0C
FC
FC
08
08
E4
F0
08
18
10
F0
DC
08
EC
F4
0C
1C
00
EC
04
08
F0
F4
EC
F0
00
EC
EC
F8
EC
F4
08
E4
FC
F8
0C
D4
00
1C
04
F8
0C
FC
0C
0C
00
10
F0
FC
08
F8
F8
DC
F4
0C
F4
14
E4
08
00
F8
EC
F8
08
F4
F0
EC
FC
04
E4
E4
08
F0
0C
0C
18
00
F8
28
F4
0C
C8
E8
04
0C
E8
F0
0C
F0
FC
00
04
FC
24
08
00
F4
F0
FC
04
F8
DC
F0
10
FC
14
08
FC
18
1C
F4
0C
00
E8
F0
1C
EC
08
F0
EC
20
08
0C
1C
28
28
20
40
1C
94
1C
30
1C
18
0C
18
0C
14
EC
EC
0C
E8
FC
5C
3C
14
28
54
04
00
04
0C
0C
00
E8
04
18
1C
08
04
04
5C
34
08
1C
28
0C
F8
1C
F0
0C
00
14
10
44
70
FC
F8
F8
50
34
04
10
10
0C
0C
10
28
20
20
3C
68
00
BC
B8
64
38
3C
20
00
10
04
FC
04
F4
14
18
14
38
7F
60
1C
1C
04
00
08
00
04
E8
0C
00
14
2C
4C
2C
48
2C
0C
28
0C
14
FC
10
E0
18
0C
24
40
50
70
1C
80
24
48
60
1C
0C
08
F0
04
04
F8
FC
14
0C
F4
00
EC
F4
FC
FC
20
FC
DC
08
18
20
04
FC
0C
0C
E4
F4
FC
00
0C
00
F8
18
20
EC
F0
08
18
10
00
00
18
08
F8
FC
F8
08
14
F0
08
00
00
E0
F0
18
F8
F4
0C
E4
F0
E8
E4
04
08
18
D0
F0
30
